unsigned char sine_model_tflite[] = {
  0x1c, 0x00, 0x00, 0x00, 0x54, 0x46, 0x4c, 0x33, 0x00, 0x00, 0x12, 0x00,
  0x1c, 0x00, 0x04, 0x00, 0x08, 0x00, 0x0c, 0x00, 0x10, 0x00, 0x14, 0x00,
  0x00, 0x00, 0x18, 0x00, 0x12, 0x00, 0x00, 0x00, 0x03, 0x00, 0x00, 0x00,
  0x40, 0x0a, 0x00, 0x00, 0x10, 0x00, 0x00, 0x00, 0x1c, 0x00, 0x00, 0x00,
  0x2c, 0x00, 0x00, 0x00, 0x0c, 0x00, 0x00, 0x00, 0x01, 0x00, 0x00, 0x00,
  0xec, 0x00, 0x00, 0x00, 0x01, 0x00, 0x00, 0x00, 0xb4, 0x00, 0x00, 0x00,
  0x0f, 0x00, 0x00, 0x00, 0x54, 0x4f, 0x43, 0x4f, 0x20, 0x43, 0x6f, 0x6e,
  0x76, 0x65, 0x72, 0x74, 0x65, 0x64, 0x2e, 0x00, 0x0c, 0x00, 0x00, 0x00,
  0x88, 0x00, 0x00, 0x00, 0x7c, 0x00, 0x00, 0x00, 0x68, 0x00, 0x00, 0x00,
  0x54, 0x00, 0x00, 0x00, 0x48, 0x00, 0x00, 0x00, 0x3c, 0x00, 0x00, 0x00,
  0x34, 0x00, 0x00, 0x00, 0x2c, 0x00, 0x00, 0x00, 0x20, 0x00, 0x00, 0x00,
  0x18, 0x00, 0x00, 0x00, 0x10, 0x00, 0x00, 0x00, 0x04, 0x00, 0x00, 0x00,
  0xb6, 0xff, 0xff, 0xff, 0x58, 0x00, 0x00, 0x00, 0xc8, 0xf6, 0xff, 0xff,
  0xcc, 0xf6, 0xff, 0xff, 0xc6, 0xff, 0xff, 0xff, 0xa4, 0x01, 0x00, 0x00,
  0xd8, 0xf6, 0xff, 0xff, 0xdc, 0xf6, 0xff, 0xff, 0xd6, 0xff, 0xff, 0xff,
  0xb0, 0x02, 0x00, 0x00, 0xde, 0xff, 0xff, 0xff, 0x48, 0x03, 0x00, 0x00,
  0xf6, 0xff, 0xff, 0xff, 0x88, 0x07, 0x00, 0x00, 0x00, 0x00, 0x06, 0x00,
  0x0a, 0x00, 0x04, 0x00, 0x06, 0x00, 0x00, 0x00, 0x00, 0x08, 0x00, 0x00,
  0x00, 0x00, 0x06, 0x00, 0x08, 0x00, 0x04, 0x00, 0x06, 0x00, 0x00, 0x00,
  0x64, 0x08, 0x00, 0x00, 0x18, 0xf7, 0xff, 0xff, 0x05, 0x00, 0x00, 0x00,
  0x31, 0x2e, 0x35, 0x2e, 0x30, 0x00, 0x00, 0x00, 0xfc, 0xfd, 0xff, 0xff,
  0x08, 0x00, 0x00, 0x00, 0x0b, 0x00, 0x00, 0x00, 0x13, 0x00, 0x00, 0x00,
  0x6d, 0x69, 0x6e, 0x5f, 0x72, 0x75, 0x6e, 0x74, 0x69, 0x6d, 0x65, 0x5f,
  0x76, 0x65, 0x72, 0x73, 0x69, 0x6f, 0x6e, 0x00, 0x0c, 0x00, 0x14, 0x00,
  0x04, 0x00, 0x08, 0x00, 0x0c, 0x00, 0x10, 0x00, 0x0c, 0x00, 0x00, 0x00,
  0x20, 0x00, 0x00, 0x00, 0x14, 0x00, 0x00, 0x00, 0x08, 0x00, 0x00, 0x00,
  0x54, 0x08, 0x00, 0x00, 0x01, 0x00, 0x00, 0x00, 0x00, 0x00, 0x00, 0x00,
  0x01, 0x00, 0x00, 0x00, 0x01, 0x00, 0x00, 0x00, 0x0a, 0x00, 0x00, 0x00,
  0x68, 0x00, 0x00, 0x00, 0x78, 0x01, 0x00, 0x00, 0x94, 0x00, 0x00, 0x00,
  0xc4, 0x01, 0x00, 0x00, 0x2c, 0x01, 0x00, 0x00, 0x44, 0x02, 0x00, 0x00,
  0xa0, 0x06, 0x00, 0x00, 0x0c, 0x00, 0x00, 0x00, 0x7c, 0x07, 0x00, 0x00,
  0x1c, 0x07, 0x00, 0x00, 0x9a, 0xf8, 0xff, 0xff, 0x10, 0x00, 0x00, 0x00,
  0x0a, 0x00, 0x00, 0x00, 0x14, 0x00, 0x00, 0x00, 0x2c, 0x00, 0x00, 0x00,
  0x02, 0x00, 0x00, 0x00, 0x01, 0x00, 0x00, 0x00, 0x10, 0x00, 0x00, 0x00,
  0x17, 0x00, 0x00, 0x00, 0x73, 0x65, 0x71, 0x75, 0x65, 0x6e, 0x74, 0x69,
  0x61, 0x6c, 0x2f, 0x64, 0x65, 0x6e, 0x73, 0x65, 0x5f, 0x31, 0x2f, 0x52,
  0x65, 0x6c, 0x75, 0x00, 0xe4, 0xf7, 0xff, 0xff, 0xda, 0xf8, 0xff, 0xff,
  0x10, 0x00, 0x00, 0x00, 0x09, 0x00, 0x00, 0x00, 0x14, 0x00, 0x00, 0x00,
  0x20, 0x00, 0x00, 0x00, 0x02, 0x00, 0x00, 0x00, 0x01, 0x00, 0x00, 0x00,
  0x01, 0x00, 0x00, 0x00, 0x08, 0x00, 0x00, 0x00, 0x49, 0x64, 0x65, 0x6e,
  0x74, 0x69, 0x74, 0x79, 0x00, 0x00, 0x00, 0x00, 0x18, 0xf8, 0xff, 0xff,
  0x0e, 0xf9, 0xff, 0xff, 0x10, 0x00, 0x00, 0x00, 0x08, 0x00, 0x00, 0x00,
  0x14, 0x00, 0x00, 0x00, 0x48, 0x00, 0x00, 0x00, 0x02, 0x00, 0x00, 0x00,
  0x10, 0x00, 0x00, 0x00, 0x01, 0x00, 0x00, 0x00, 0x30, 0x00, 0x00, 0x00,
  0x73, 0x65, 0x71, 0x75, 0x65, 0x6e, 0x74, 0x69, 0x61, 0x6c, 0x2f, 0x64,
  0x65, 0x6e, 0x73, 0x65, 0x2f, 0x4d, 0x61, 0x74, 0x4d, 0x75, 0x6c, 0x2f,
  0x52, 0x65, 0x61, 0x64, 0x56, 0x61, 0x72, 0x69, 0x61, 0x62, 0x6c, 0x65,
  0x4f, 0x70, 0x2f, 0x74, 0x72, 0x61, 0x6e, 0x73, 0x70, 0x6f, 0x73, 0x65,
  0x00, 0x00, 0x00, 0x00, 0x74, 0xf8, 0xff, 0xff, 0x40, 0x00, 0x00, 0x00,
  0x90, 0xc5, 0xa3, 0xbd, 0x56, 0x74, 0x38, 0x3c, 0xe8, 0xab, 0x0a, 0xbe,
  0x97, 0xa9, 0x57, 0x3e, 0xfa, 0xaa, 0x01, 0x3e, 0x4a, 0xc4, 0x69, 0xbe,
  0xbf, 0x62, 0x53, 0x3e, 0xd2, 0x41, 0xe6, 0xbe, 0xc4, 0x88, 0x82, 0x3e,
  0xda, 0x4f, 0xe7, 0xbe, 0x83, 0x86, 0x19, 0x3f, 0x4d, 0xb4, 0xed, 0x3e,
  0x18, 0xbb, 0x03, 0xbf, 0xa1, 0xb8, 0xfc, 0x3e, 0x30, 0x20, 0x75, 0x3e,
  0xe2, 0xa5, 0xbb, 0x3e, 0xae, 0xf9, 0xff, 0xff, 0x10, 0x00, 0x00, 0x00,
  0x07, 0x00, 0x00, 0x00, 0x14, 0x00, 0x00, 0x00, 0x2c, 0x00, 0x00, 0x00,
  0x02, 0x00, 0x00, 0x00, 0x01, 0x00, 0x00, 0x00, 0x10, 0x00, 0x00, 0x00,
  0x15, 0x00, 0x00, 0x00, 0x73, 0x65, 0x71, 0x75, 0x65, 0x6e, 0x74, 0x69,
  0x61, 0x6c, 0x2f, 0x64, 0x65, 0x6e, 0x73, 0x65, 0x2f, 0x52, 0x65, 0x6c,
  0x75, 0x00, 0x00, 0x00, 0xf8, 0xf8, 0xff, 0xff, 0xee, 0xf9, 0xff, 0xff,
  0x10, 0x00, 0x00, 0x00, 0x06, 0x00, 0x00, 0x00, 0x14, 0x00, 0x00, 0x00,
  0x28, 0x00, 0x00, 0x00, 0x02, 0x00, 0x00, 0x00, 0x01, 0x00, 0x00, 0x00,
  0x01, 0x00, 0x00, 0x00, 0x0b, 0x00, 0x00, 0x00, 0x64, 0x65, 0x6e, 0x73,
  0x65, 0x5f, 0x69, 0x6e, 0x70, 0x75, 0x74, 0x00, 0x08, 0x00, 0x0c, 0x00,
  0x04, 0x00, 0x08, 0x00, 0x08, 0x00, 0x00, 0x00, 0x10, 0x00, 0x00, 0x00,
  0x04, 0x00, 0x00, 0x00, 0x01, 0x00, 0x00, 0x00, 0x00, 0x00, 0x7f, 0x43,
  0x01, 0x00, 0x00, 0x00, 0x00, 0x00, 0x00, 0x00, 0x42, 0xfa, 0xff, 0xff,
  0x10, 0x00, 0x00, 0x00, 0x05, 0x00, 0x00, 0x00, 0x10, 0x00, 0x00, 0x00,
  0x30, 0x00, 0x00, 0x00, 0x01, 0x00, 0x00, 0x00, 0x10, 0x00, 0x00, 0x00,
  0x1c, 0x00, 0x00, 0x00, 0x73, 0x65, 0x71, 0x75, 0x65, 0x6e, 0x74, 0x69,
  0x61, 0x6c, 0x2f, 0x64, 0x65, 0x6e, 0x73, 0x65, 0x2f, 0x4d, 0x61, 0x74,
  0x4d, 0x75, 0x6c, 0x5f, 0x62, 0x69, 0x61, 0x73, 0x00, 0x00, 0x00, 0x00,
  0x90, 0xf9, 0xff, 0xff, 0x40, 0x00, 0x00, 0x00, 0x00, 0x00, 0x00, 0x00,
  0x87, 0x5a, 0x0b, 0x3f, 0x00, 0x00, 0x00, 0x00, 0xe0, 0xe3, 0xac, 0xbe,
  0x5d, 0x40, 0x0e, 0xbf, 0x00, 0x00, 0x00, 0x00, 0x1f, 0xeb, 0xd7, 0xbe,
  0x00, 0x00, 0x00, 0x00, 0x94, 0x46, 0x1e, 0xbf, 0x00, 0x00, 0x00, 0x00,
  0x97, 0x1f, 0x0a, 0x3e, 0x48, 0x61, 0x1b, 0x3b, 0x00, 0x00, 0x00, 0x00,
  0xdb, 0x66, 0x52, 0xbf, 0xba, 0xb8, 0xa4, 0xbc, 0x36, 0x33, 0x13, 0x3d,
  0xca, 0xfa, 0xff, 0xff, 0x10, 0x00, 0x00, 0x00, 0x04, 0x00, 0x00, 0x00,
  0x14, 0x00, 0x00, 0x00, 0x48, 0x00, 0x00, 0x00, 0x02, 0x00, 0x00, 0x00,
  0x10, 0x00, 0x00, 0x00, 0x10, 0x00, 0x00, 0x00, 0x32, 0x00, 0x00, 0x00,
  0x73, 0x65, 0x71, 0x75, 0x65, 0x6e, 0x74, 0x69, 0x61, 0x6c, 0x2f, 0x64,
  0x65, 0x6e, 0x73, 0x65, 0x5f, 0x31, 0x2f, 0x4d, 0x61, 0x74, 0x4d, 0x75,
  0x6c, 0x2f, 0x52, 0x65, 0x61, 0x64, 0x56, 0x61, 0x72, 0x69, 0x61, 0x62,
  0x6c, 0x65, 0x4f, 0x70, 0x2f, 0x74, 0x72, 0x61, 0x6e, 0x73, 0x70, 0x6f,
  0x73, 0x65, 0x00, 0x00, 0x30, 0xfa, 0xff, 0xff, 0x00, 0x04, 0x00, 0x00,
  0x17, 0xe7, 0x93, 0xbe, 0xb8, 0x0e, 0x63, 0xbd, 0xc7, 0x9a, 0x97, 0x3e,
  0x4c, 0x52, 0xd0, 0xbe, 0xdd, 0x62, 0x6b, 0xbe, 0xa8, 0xfa, 0x9b, 0xbe,
  0x34, 0xf3, 0xd4, 0x3d, 0xdc, 0xa3, 0xae, 0x3d, 0x99, 0xee, 0x84, 0x3e,
  0x7c, 0x0f, 0x82, 0x3d, 0x04, 0x53, 0xaf, 0x3e, 0x3c, 0xf7, 0x06, 0xbe,
  0x6a, 0x6f, 0x1d, 0x3e, 0xa8, 0xbf, 0xc1, 0x3e, 0x1d, 0x29, 0x92, 0x3e,
  0x3d, 0xca, 0x13, 0x3e, 0x83, 0x8e, 0xc7, 0x3e, 0x39, 0xe8, 0x44, 0x3e,
  0x10, 0x64, 0x35, 0xbd, 0xb1, 0x06, 0x8c, 0xbd, 0xd8, 0x51, 0x88, 0xbd,
  0xf7, 0xd0, 0xbf, 0x3e, 0x59, 0x92, 0xa7, 0x3e, 0x40, 0x57, 0x80, 0x3c,
  0xec, 0x12, 0xa3, 0x3d, 0x96, 0xd9, 0x2a, 0xbe, 0x3a, 0x88, 0xa9, 0x3d,
  0xa4, 0x44, 0xba, 0xbe, 0xc0, 0x6e, 0xcd, 0xbd, 0x60, 0xc7, 0xb0, 0xbe,
  0x61, 0x51, 0x56, 0xbd, 0x3f, 0x88, 0x03, 0xbf, 0x84, 0x0d, 0xec, 0xbd,
  0xf1, 0xd0, 0x90, 0x3e, 0xd2, 0xa7, 0x05, 0x3e, 0x41, 0x83, 0x1d, 0xbe,
  0xe1, 0xf2, 0x49, 0xbf, 0x60, 0xe4, 0x0a, 0xbe, 0x54, 0x1d, 0x66, 0xbf,
  0xf5, 0xd0, 0xc0, 0x3e, 0x39, 0x95, 0x8c, 0xbf, 0xab, 0xc9, 0x8f, 0x3e,
  0x04, 0x4d, 0x0f, 0xbd, 0x4a, 0x18, 0x93, 0x3e, 0xbb, 0xc3, 0x3c, 0xbe,
  0xd3, 0xa3, 0xd8, 0xbe, 0x85, 0x94, 0x4c, 0x3b, 0xfc, 0x22, 0xc4, 0x3e,
  0xd2, 0x52, 0x56, 0x3e, 0x99, 0x36, 0x0b, 0xbf, 0x23, 0x23, 0x56, 0xbe,
  0x56, 0xfc, 0x83, 0x3e, 0xcc, 0xe8, 0xf4, 0x3e, 0x0a, 0x0d, 0x2d, 0xbe,
  0x4b, 0x7a, 0x6d, 0x3e, 0xc0, 0x47, 0x37, 0x3d, 0xa1, 0x9a, 0xf3, 0x3e,
  0x1a, 0xe1, 0x65, 0x3e, 0xca, 0x18, 0x57, 0x3e, 0xcf, 0xdf, 0x40, 0xbd,
  0xa8, 0xad, 0x0b, 0x3d, 0xa4, 0xa2, 0xc6, 0x3e, 0xab, 0x31, 0x95, 0x3d,
  0x53, 0xf9, 0x14, 0x3e, 0x66, 0x4c, 0x77, 0x3e, 0x19, 0x2b, 0x1d, 0xbf,
  0xb5, 0xf1, 0xb3, 0x3e, 0x6e, 0x8f, 0x49, 0x3e, 0xa3, 0xe0, 0x52, 0x3f,
  0xab, 0xfb, 0x6a, 0xbe, 0xab, 0x9f, 0x8c, 0xbe, 0xc6, 0x34, 0x50, 0x3e,
  0xf9, 0x38, 0xf1, 0x3e, 0xe7, 0x74, 0x8f, 0x3e, 0x64, 0x79, 0x8f, 0x3e,
  0xf6, 0xba, 0x24, 0xbd, 0x00, 0x13, 0xfe, 0xbd, 0x3a, 0x89, 0xd9, 0x3e,
  0x9b, 0xe8, 0x54, 0x3e, 0xff, 0x05, 0x8f, 0x3e, 0xe3, 0x57, 0xd4, 0xbe,
  0xea, 0xab, 0x0a, 0x3f, 0x4b, 0xeb, 0xbb, 0x3e, 0x00, 0xae, 0x6b, 0xbe,
  0x3b, 0xa0, 0x3f, 0xbc, 0x17, 0x4d, 0xad, 0x3e, 0xb0, 0x53, 0x5c, 0x3d,
  0x00, 0x62, 0x26, 0x3a, 0xf2, 0xf2, 0x06, 0xbe, 0x68, 0xd6, 0x19, 0xbd,
  0xb0, 0xfc, 0xb7, 0xbe, 0x42, 0x96, 0x13, 0xbf, 0x50, 0x18, 0x83, 0xbe,
  0x18, 0x22, 0xa3, 0xbe, 0x0c, 0x28, 0x46, 0xbf, 0x81, 0x91, 0x05, 0x3e,
  0x0a, 0x4a, 0x4e, 0x3e, 0xff, 0x7d, 0x2c, 0xbf, 0x08, 0x15, 0x40, 0xbd,
  0xa3, 0x01, 0x6e, 0xbd, 0xcc, 0x87, 0x7a, 0x3f, 0xe0, 0x34, 0x46, 0xbd,
  0x91, 0x39, 0xe0, 0xbd, 0x5a, 0x1c, 0x3f, 0x3e, 0xc5, 0x13, 0x2b, 0x3e,
  0x1c, 0xfd, 0x94, 0xbe, 0x3b, 0xc2, 0x74, 0xbe, 0xcc, 0x96, 0x08, 0x3e,
  0x8c, 0x8c, 0x32, 0xbe, 0x75, 0x50, 0x01, 0x3f, 0x30, 0x6a, 0x9e, 0x3e,
  0x26, 0x30, 0xed, 0xbd, 0x98, 0x02, 0x73, 0xbd, 0x60, 0x77, 0x26, 0x3c,
  0xcb, 0x5f, 0x8f, 0x3e, 0x8d, 0x83, 0x59, 0x3e, 0x3e, 0xa2, 0xa8, 0xbe,
  0x3b, 0x09, 0xc2, 0x3e, 0x77, 0xa1, 0x91, 0x3d, 0x56, 0x16, 0x0e, 0xbe,
  0x86, 0x8d, 0xd2, 0x3e, 0x1c, 0xfa, 0x93, 0x3d, 0x8c, 0x21, 0x7f, 0xbd,
  0x13, 0x93, 0xec, 0xbd, 0x40, 0x5b, 0xa7, 0xbe, 0x12, 0x4d, 0x90, 0x3e,
  0x6b, 0x2d, 0x03, 0xbe, 0x93, 0x57, 0xcb, 0xbe, 0x34, 0xd8, 0xdd, 0x3d,
  0x7f, 0xbd, 0x97, 0x3e, 0x0a, 0x31, 0x20, 0xbe, 0x74, 0xbb, 0x92, 0x3d,
  0x7c, 0x6d, 0x1d, 0xbe, 0x08, 0x7d, 0xd4, 0xbe, 0x08, 0xb5, 0x1e, 0xbf,
  0x62, 0x13, 0x04, 0x3e, 0x77, 0xde, 0x92, 0xbf, 0xff, 0xa0, 0xaa, 0x3e,
  0x4e, 0x5f, 0x30, 0x3e, 0x98, 0x7b, 0x18, 0x3e, 0xf8, 0xe8, 0xf3, 0xbd,
  0x54, 0x34, 0xa3, 0xbe, 0x88, 0x35, 0x3b, 0x3d, 0x99, 0xfa, 0x46, 0x3d,
  0xc0, 0x15, 0x4a, 0xbc, 0x94, 0xaf, 0x55, 0xbe, 0x7b, 0x5c, 0xb3, 0x3e,
  0xa0, 0xe7, 0xf6, 0xbd, 0x16, 0x1a, 0x4b, 0x3e, 0x3d, 0x5a, 0xd6, 0x3e,
  0xbd, 0xc7, 0xd6, 0x3e, 0x34, 0x8c, 0xd6, 0xbd, 0xc8, 0x46, 0x7d, 0xbd,
  0xd0, 0xea, 0x81, 0xbc, 0xa4, 0xdd, 0x90, 0xbe, 0x80, 0x0e, 0x00, 0xbc,
  0x79, 0xf8, 0x99, 0x3e, 0x03, 0x8c, 0xbd, 0xbe, 0x64, 0x0d, 0x8f, 0x3d,
  0x52, 0x9a, 0x82, 0xbe, 0xc0, 0xaa, 0xa7, 0x3b, 0xa0, 0x1f, 0x3b, 0xbe,
  0x64, 0x03, 0xc0, 0xbd, 0x60, 0x2e, 0xa1, 0xbe, 0x31, 0x64, 0xb9, 0x3e,
  0x93, 0x08, 0x9d, 0x3e, 0x08, 0x1a, 0x20, 0xbe, 0xf4, 0xb5, 0xb2, 0xbd,
  0xf6, 0x38, 0x34, 0xbe, 0xb6, 0x46, 0x81, 0xbe, 0x40, 0x42, 0xa3, 0xbe,
  0x14, 0xbd, 0xee, 0x3d, 0xde, 0xa2, 0x5a, 0xbe, 0x02, 0x5b, 0x10, 0xbe,
  0x30, 0xdc, 0x91, 0xbc, 0x50, 0xd8, 0x80, 0x3c, 0x72, 0x45, 0x06, 0x3e,
  0xac, 0xdd, 0x7f, 0xbd, 0x32, 0x26, 0x7a, 0x3e, 0x52, 0xc3, 0xdc, 0x3e,
  0xef, 0x38, 0x45, 0x3f, 0x54, 0xd3, 0xa0, 0x3d, 0xb7, 0x41, 0x09, 0x3f,
  0x92, 0xde, 0x3c, 0x3e, 0xef, 0x00, 0x05, 0x3d, 0xec, 0xe6, 0xa5, 0x3d,
  0x21, 0x02, 0x91, 0xbb, 0xde, 0xa9, 0xf3, 0x3a, 0xc4, 0xeb, 0xac, 0x3d,
  0x04, 0xb2, 0x97, 0xbd, 0xbc, 0xcf, 0x03, 0xbe, 0xc6, 0xd4, 0x0a, 0x3e,
  0x3e, 0x2b, 0x51, 0xbe, 0x6d, 0xe5, 0x4c, 0xbe, 0x90, 0x81, 0x4f, 0xbe,
  0x82, 0x6e, 0x2e, 0x3e, 0xf2, 0x78, 0x1f, 0x3e, 0xed, 0xd1, 0x68, 0xbe,
  0x94, 0xd2, 0xad, 0xbe, 0xf2, 0x73, 0x83, 0xbe, 0x17, 0x59, 0xd0, 0x3e,
  0x4c, 0x89, 0x8f, 0xbd, 0x6a, 0x31, 0x74, 0x3d, 0x5e, 0xaf, 0xbe, 0xbe,
  0x57, 0xc2, 0x8c, 0x3e, 0x22, 0x0e, 0x9d, 0xbd, 0xd2, 0x93, 0x63, 0xbe,
  0xa0, 0xb9, 0x00, 0x3c, 0x4b, 0xaa, 0xb8, 0x3e, 0xc5, 0x21, 0x95, 0xbe,
  0x11, 0xf4, 0xa8, 0x3e, 0x26, 0x96, 0x1d, 0x3d, 0x15, 0x4e, 0x18, 0xbf,
  0xed, 0xd8, 0x5f, 0xbe, 0x2a, 0x44, 0xa8, 0xbe, 0x6e, 0x1d, 0x3e, 0x3e,
  0xc2, 0x09, 0x15, 0xbf, 0x5c, 0x6f, 0xc2, 0x3d, 0xe2, 0x6b, 0xea, 0x3e,
  0x5f, 0x28, 0xc2, 0x3e, 0xa8, 0x84, 0xde, 0xbd, 0x48, 0x5f, 0x95, 0x3d,
  0xe0, 0xcc, 0xe4, 0x3e, 0x3b, 0xa3, 0x44, 0xbe, 0x6b, 0xbe, 0x8c, 0xbe,
  0x1a, 0xeb, 0xeb, 0x3e, 0x48, 0x39, 0x82, 0xbe, 0xfc, 0xa6, 0x03, 0x3c,
  0x8f, 0x18, 0x04, 0x3e, 0x69, 0x75, 0xb5, 0x3e, 0x10, 0xab, 0xf4, 0xbd,
  0x7b, 0x9c, 0x91, 0x3e, 0xec, 0xcc, 0x33, 0xbe, 0x76, 0x15, 0x36, 0xbe,
  0x37, 0xb0, 0xca, 0xbd, 0xd2, 0xba, 0x0a, 0xbf, 0x80, 0x32, 0x65, 0x3c,
  0x46, 0x0d, 0xa5, 0x3d, 0x2c, 0x29, 0x2a, 0x3e, 0x74, 0xdb, 0x06, 0xbf,
  0x4c, 0x22, 0xee, 0x3d, 0x41, 0xd3, 0xf1, 0xbe, 0x7c, 0xe5, 0xfd, 0x3d,
  0xc3, 0xa7, 0xdf, 0xbe, 0x3b, 0x72, 0x5f, 0x3f, 0x10, 0x80, 0x54, 0xbe,
  0x7d, 0x18, 0x0b, 0xbe, 0x6a, 0x03, 0x8d, 0xbe, 0xbc, 0xfd, 0x6c, 0x3e,
  0xfd, 0xe5, 0x99, 0x3e, 0x97, 0xdc, 0x27, 0x3d, 0x8c, 0xf4, 0x9e, 0x3e,
  0x44, 0xb2, 0x33, 0xbe, 0x89, 0xbf, 0xb6, 0x3e, 0x1c, 0x7c, 0x91, 0x3d,
  0x30, 0xe5, 0xd8, 0xbc, 0x2a, 0xff, 0xff, 0xff, 0x10, 0x00, 0x00, 0x00,
  0x03, 0x00, 0x00, 0x00, 0x10, 0x00, 0x00, 0x00, 0x30, 0x00, 0x00, 0x00,
  0x01, 0x00, 0x00, 0x00, 0x10, 0x00, 0x00, 0x00, 0x1e, 0x00, 0x00, 0x00,
  0x73, 0x65, 0x71, 0x75, 0x65, 0x6e, 0x74, 0x69, 0x61, 0x6c, 0x2f, 0x64,
  0x65, 0x6e, 0x73, 0x65, 0x5f, 0x31, 0x2f, 0x4d, 0x61, 0x74, 0x4d, 0x75,
  0x6c, 0x5f, 0x62, 0x69, 0x61, 0x73, 0x00, 0x00, 0x78, 0xfe, 0xff, 0xff,
  0x40, 0x00, 0x00, 0x00, 0xfb, 0x9a, 0xf7, 0x3d, 0x4f, 0x75, 0xbe, 0xbd,
  0x66, 0x12, 0x85, 0x3e, 0x50, 0xe7, 0xb0, 0xbe, 0x52, 0xdd, 0x9c, 0xbe,
  0xb4, 0xc6, 0xd5, 0x3e, 0xe3, 0x66, 0xb2, 0xbe, 0x35, 0x5a, 0x21, 0xbb,
  0x59, 0xc8, 0xb0, 0x3e, 0x00, 0x00, 0x00, 0x00, 0x00, 0x00, 0x00, 0x00,
  0xee, 0x46, 0xba, 0xbe, 0xe5, 0x39, 0x4f, 0xbb, 0xfd, 0xf0, 0x11, 0x3d,
  0xec, 0x3b, 0x27, 0x3d, 0xec, 0x65, 0x78, 0xbe, 0xb2, 0xff, 0xff, 0xff,
  0x10, 0x00, 0x00, 0x00, 0x02, 0x00, 0x00, 0x00, 0x10, 0x00, 0x00, 0x00,
  0x30, 0x00, 0x00, 0x00, 0x01, 0x00, 0x00, 0x00, 0x01, 0x00, 0x00, 0x00,
  0x1e, 0x00, 0x00, 0x00, 0x73, 0x65, 0x71, 0x75, 0x65, 0x6e, 0x74, 0x69,
  0x61, 0x6c, 0x2f, 0x64, 0x65, 0x6e, 0x73, 0x65, 0x5f, 0x32, 0x2f, 0x4d,
  0x61, 0x74, 0x4d, 0x75, 0x6c, 0x5f, 0x62, 0x69, 0x61, 0x73, 0x00, 0x00,
  0x00, 0xff, 0xff, 0xff, 0x04, 0x00, 0x00, 0x00, 0x06, 0xdc, 0xb2, 0xbe,
  0x00, 0x00, 0x0e, 0x00, 0x14, 0x00, 0x04, 0x00, 0x00, 0x00, 0x08, 0x00,
  0x0c, 0x00, 0x10, 0x00, 0x0e, 0x00, 0x00, 0x00, 0x10, 0x00, 0x00, 0x00,
  0x01, 0x00, 0x00, 0x00, 0x14, 0x00, 0x00, 0x00, 0x48, 0x00, 0x00, 0x00,
  0x02, 0x00, 0x00, 0x00, 0x01, 0x00, 0x00, 0x00, 0x10, 0x00, 0x00, 0x00,
  0x32, 0x00, 0x00, 0x00, 0x73, 0x65, 0x71, 0x75, 0x65, 0x6e, 0x74, 0x69,
  0x61, 0x6c, 0x2f, 0x64, 0x65, 0x6e, 0x73, 0x65, 0x5f, 0x32, 0x2f, 0x4d,
  0x61, 0x74, 0x4d, 0x75, 0x6c, 0x2f, 0x52, 0x65, 0x61, 0x64, 0x56, 0x61,
  0x72, 0x69, 0x61, 0x62, 0x6c, 0x65, 0x4f, 0x70, 0x2f, 0x74, 0x72, 0x61,
  0x6e, 0x73, 0x70, 0x6f, 0x73, 0x65, 0x00, 0x00, 0x74, 0xff, 0xff, 0xff,
  0x40, 0x00, 0x00, 0x00, 0x49, 0x3a, 0xa1, 0xbe, 0xc0, 0xa9, 0x0e, 0x3e,
  0xc5, 0x31, 0xa8, 0x3f, 0x84, 0x34, 0x43, 0x3e, 0xdc, 0xcf, 0x83, 0x3e,
  0x63, 0xb2, 0x5e, 0xbf, 0x2e, 0xe2, 0xca, 0x3f, 0xe0, 0xae, 0xb7, 0xbd,
  0xdd, 0xf2, 0x74, 0x3f, 0x60, 0xa6, 0x1e, 0x3e, 0xb8, 0x96, 0x02, 0xbf,
  0xfc, 0xc1, 0x2e, 0x3f, 0xd8, 0x0e, 0x6b, 0x3e, 0xfa, 0xff, 0x1f, 0xbf,
  0x9a, 0x04, 0xcc, 0xbe, 0x15, 0x6c, 0x3b, 0x3e, 0x03, 0x00, 0x00, 0x00,
  0x98, 0x00, 0x00, 0x00, 0x44, 0x00, 0x00, 0x00, 0x04, 0x00, 0x00, 0x00,
  0x88, 0xff, 0xff, 0xff, 0x00, 0x00, 0x00, 0x08, 0x10, 0x00, 0x00, 0x00,
  0x1c, 0x00, 0x00, 0x00, 0x28, 0x00, 0x00, 0x00, 0x1c, 0x00, 0x00, 0x00,
  0x03, 0x00, 0x00, 0x00, 0x07, 0x00, 0x00, 0x00, 0x08, 0x00, 0x00, 0x00,
  0x09, 0x00, 0x00, 0x00, 0x01, 0x00, 0x00, 0x00, 0x00, 0x00, 0x00, 0x00,
  0x00, 0x00, 0x00, 0x00, 0x04, 0x00, 0x04, 0x00, 0x04, 0x00, 0x00, 0x00,
  0xc4, 0xff, 0xff, 0xff, 0x00, 0x00, 0x00, 0x08, 0x10, 0x00, 0x00, 0x00,
  0x1c, 0x00, 0x00, 0x00, 0x24, 0x00, 0x00, 0x00, 0x1c, 0x00, 0x00, 0x00,
  0x03, 0x00, 0x00, 0x00, 0x04, 0x00, 0x00, 0x00, 0x05, 0x00, 0x00, 0x00,
  0x06, 0x00, 0x00, 0x00, 0x01, 0x00, 0x00, 0x00, 0x07, 0x00, 0x00, 0x00,
  0x00, 0x00, 0x00, 0x00, 0x8e, 0xff, 0xff, 0xff, 0x00, 0x00, 0x00, 0x01,
  0x14, 0x00, 0x18, 0x00, 0x00, 0x00, 0x08, 0x00, 0x0c, 0x00, 0x07, 0x00,
  0x10, 0x00, 0x00, 0x00, 0x00, 0x00, 0x14, 0x00, 0x14, 0x00, 0x00, 0x00,
  0x00, 0x00, 0x00, 0x08, 0x10, 0x00, 0x00, 0x00, 0x1c, 0x00, 0x00, 0x00,
  0x24, 0x00, 0x00, 0x00, 0x1c, 0x00, 0x00, 0x00, 0x03, 0x00, 0x00, 0x00,
  0x01, 0x00, 0x00, 0x00, 0x02, 0x00, 0x00, 0x00, 0x03, 0x00, 0x00, 0x00,
  0x01, 0x00, 0x00, 0x00, 0x04, 0x00, 0x00, 0x00, 0x00, 0x00, 0x00, 0x00,
  0xde, 0xff, 0xff, 0xff, 0x00, 0x00, 0x00, 0x01, 0x01, 0x00, 0x00, 0x00,
  0x04, 0x00, 0x00, 0x00, 0xfa, 0xff, 0xff, 0xff, 0x00, 0x09, 0x06, 0x00,
  0x06, 0x00, 0x05, 0x00, 0x06, 0x00, 0x00, 0x00, 0x00, 0x09, 0x06, 0x00,
  0x08, 0x00, 0x07, 0x00, 0x06, 0x00, 0x00, 0x00, 0x00, 0x00, 0x00, 0x09
};
unsigned int sine_model_tflite_len = 2700;
